memory_initialization_radix=2;
memory_initialization_vector=
0000000000000000,
0000000000000000,
0000000000000000,
0000000000000000,
0000000000000000,
0000000000000000,
0000000000000000,
0000000000000000,
0000000000000000,
0000000000000000,
0000000000000000,
0000000000000000,
0000000000000000,
0000000000000000,
0000000000000000,
0000000000000000,
0000000000000000,
0000000000000000,
0000000000000000,
0000000000000000,
0000000000000000,
0000000000000000,
0000000000000000,
0000000000000000,
0000000000000000,
0000000000000000,
0000000000000000,
0000000000000000,
0000000000000000,
0000000000000000,
0000000000000000,
0000000000000000,
0000000000000000,
0000000000000000,
0000000000000000,
0000000000000000,
0000000000000000,
0000000000000000,
0000000000000000,
0000000000000000,
0000000000000000,
0000000000000000,
0000000000000000,
0000000000000000,
0000000000000000,
0000000000000000,
0000000000000000,
0000000000000000,
0000000000000000,
0101011001110000,
0101010111101001,
0101010101011010,
0101010011010011,
0101010001000111,
0101001110111100,
0101001100110000,
0101001010100111,
0101001000011011,
0101000110010011,
0101000100001010,
0101000001111111,
0100111111110101,
0100111101101101,
0100111011100110,
0100111001011110,
0100110111010011,
0100110101001011,
0100110011000110,
0100110000111100,
0100101110110110,
0100101100101101,
0100101010101001,
0100101000100001,
0100100110011011,
0100100100010011,
0100100010010000,
0100100000000111,
0100011110000011,
0100011011111111,
0100011001111000,
0100010111110111,
0100010101110001,
0100010011101011,
0100010001101001,
0100001111100010,
0100001101100001,
0100001011011100,
0100001001010111,
0100000111010111,
0100000101010110,
0100000011010010,
0100000001010000,
0011111111001101,
0011111101001010,
0011111011001011,
0011111001001001,
0011110111001000,
0011110101001010,
0011110011001000,
0011110001000101,
0011101111001000,
0011101101000110,
0011101011001001,
0011101001001001,
0011100111001001,
0011100101001100,
0011100011001100,
0011100001001110,
0011011111010001,
0011011101010010,
0011011011010011,
0011011001010111,
0011010111011010,
0011010101011101,
0011010011100001,
0011010001100011,
0011001111101010,
0011001101101101,
0011001011110010,
0011001001111000,
0011000111111010,
0011000110000001,
0011000100000101,
0011000010001011,
0011000000010010,
0010111110011001,
0010111100100001,
0010111010100110,
0010111000101101,
0010110110110100,
0010110100111011,
0010110011000111,
0010110001001101,
0010101111010111,
0010101101011101,
0010101011101000,
0010101001110000,
0010100111111011,
0010100110000101,
0010100100001111,
0010100010011001,
0010100000100100,
0010011110110001,
0010011100111011,
0010011011000110,
0010011001010010,
0010010111100000,
0010010101101011,
0010010011110111,
0010010010000110,
0010010000010011,
0010001110100000,
0010001100101111,
0010001010111101,
0010001001001100,
0010000111011100,
0010000101101010,
0010000011111011,
0010000010001100,
0010000000011100,
0001111110101001,
0001111100111101,
0001111011001110,
0001111001011111,
0001110111110000,
0001110110000100,
0001110100010110,
0001110010101010,
0001110000111110,
0001101111001110,
0001101101100100,
0001101011111010,
0001101010001110,
0001101000100010,
0001100110111000,
0001100101001110,
0001100011100100,
0001100001111100,
0001100000010000,
0001011110101010,
0001011101000001,
0001011011011000,
0001011001101111,
0001011000001001,
0001010110100011,
0001010100111101,
0001010011010111,
0001010001110010,
0001010000001100,
0001001110100111,
0001001101000011,
0001001011100000,
0001001001111100,
0001001000011001,
0001000110110111,
0001000101010101,
0001000011110010,
0001000010010001,
0001000000101111,
0000111111010000,
0000111101110001,
0000111100010001,
0000111010110011,
0000111001010101,
0000110111110101,
0000110110011000,
0000110100111100,
0000110011011111,
0000110010000110,
0000110000101001,
0000101111001111,
0000101101110110,
0000101100011101,
0000101011000100,
0000101001101100,
0000101000010100,
0000100110111100,
0000100101100111,
0000100100010000,
0000100010111101,
0000100001101010,
0000100000010110,
0000011111000011,
0000011101110000,
0000011100011111,
0000011011010000,
0000011001111111,
0000011000110001,
0000010111100010,
0000010110010110,
0000010101001011,
0000010100000000,
0000010010110101,
0000010001101011,
0000010000100011,
0000001111011110,
0000001110010110,
0000001101010011,
0000001100010000,
0000001011001111,
0000001010001101,
0000001001010000,
0000001000010010,
0000000111010101,
0000000110011100,
0000000101100101,
0000000100101111,
0000000011111100,
0000000011001100,
0000000010011101,
0000000001110011,
0000000001001101,
0000000000101110,
0000000000010011,
0000000000000000;
